const unsigned char model[] = {
  0x63, 0x6f, 0x6e, 0x73, 0x74, 0x20, 0x75, 0x6e, 0x73, 0x69, 0x67, 0x6e,
  0x65, 0x64, 0x20, 0x63, 0x68, 0x61, 0x72, 0x20, 0x6d, 0x6f, 0x64, 0x65,
  0x6c, 0x5b, 0x5d, 0x20, 0x3d, 0x20, 0x7b, 0x0a, 0x20, 0x00, 0x00, 0x00,
  0x54, 0x46, 0x4c, 0x33, 0x00, 0x00, 0x00, 0x00, 0x14, 0x00, 0x20, 0x00,
  0x04, 0x00, 0x08, 0x00, 0x0c, 0x00, 0x10, 0x00, 0x14, 0x00, 0x00, 0x00,
  0x18, 0x00, 0x1c, 0x00, 0x14, 0x00, 0x00, 0x00, 0x03, 0x00, 0x00, 0x00,
  0x18, 0x00, 0x00, 0x00, 0x24, 0x00, 0x00, 0x00, 0x38, 0x01, 0x00, 0x00,
  0x24, 0x00, 0x00, 0x00, 0xe0, 0x00, 0x00, 0x00, 0x58, 0x00, 0x00, 0x00,
  0x03, 0x00, 0x00, 0x00, 0x00, 0x0e, 0x00, 0x00, 0x14, 0x07, 0x00, 0x00,
  0xe8, 0x01, 0x00, 0x00, 0x01, 0x00, 0x00, 0x00, 0x38, 0x01, 0x00, 0x00,
  0x0e, 0x00, 0x00, 0x00, 0x28, 0x11, 0x00, 0x00, 0x24, 0x11, 0x00, 0x00,
  0xfc, 0x0f, 0x00, 0x00, 0x50, 0x0f, 0x00, 0x00, 0xe0, 0x0e, 0x00, 0x00,
  0x14, 0x11, 0x00, 0x00, 0xac, 0x07, 0x00, 0x00, 0x0c, 0x11, 0x00, 0x00,
  0xd8, 0x04, 0x00, 0x00, 0x04, 0x11, 0x00, 0x00, 0xe8, 0x02, 0x00, 0x00,
  0xfc, 0x10, 0x00, 0x00, 0xf8, 0x10, 0x00, 0x00, 0xbc, 0x00, 0x00, 0x00,
  0x01, 0x00, 0x00, 0x00, 0x10, 0x00, 0x00, 0x00, 0x00, 0x00, 0x0a, 0x00,
  0x10, 0x00, 0x0c, 0x00, 0x08, 0x00, 0x04, 0x00, 0x0a, 0x00, 0x00, 0x00,
  0x0c, 0x00, 0x00, 0x00, 0x1c, 0x00, 0x00, 0x00, 0x20, 0x00, 0x00, 0x00,
  0x0f, 0x00, 0x00, 0x00, 0x73, 0x65, 0x72, 0x76, 0x69, 0x6e, 0x67, 0x5f,
  0x64, 0x65, 0x66, 0x61, 0x75, 0x6c, 0x74, 0x00, 0x01, 0x00, 0x00, 0x00,
  0x14, 0x00, 0x00, 0x00, 0x01, 0x00, 0x00, 0x00, 0x2c, 0x00, 0x00, 0x00,
  0x08, 0x00, 0x0c, 0x00, 0x08, 0x00, 0x04, 0x00, 0x08, 0x00, 0x00, 0x00,
  0x0b, 0x00, 0x00, 0x00, 0x04, 0x00, 0x00, 0x00, 0x0d, 0x00, 0x00, 0x00,
  0x71, 0x75, 0x61, 0x6e, 0x74, 0x5f, 0x64, 0x65, 0x6e, 0x73, 0x65, 0x5f,
  0x32, 0x00, 0x00, 0x00, 0xaa, 0xf0, 0xff, 0xff, 0x04, 0x00, 0x00, 0x00,
  0x07, 0x00, 0x00, 0x00, 0x69, 0x6e, 0x70, 0x75, 0x74, 0x5f, 0x31, 0x00,
  0x01, 0x00, 0x00, 0x00, 0x0c, 0x00, 0x00, 0x00, 0x08, 0x00, 0x0c, 0x00,
  0x04, 0x00, 0x08, 0x00, 0x08, 0x00, 0x00, 0x00, 0x08, 0x00, 0x00, 0x00,
  0x0d, 0x00, 0x00, 0x00, 0x13, 0x00, 0x00, 0x00, 0x6d, 0x69, 0x6e, 0x5f,
  0x72, 0x75, 0x6e, 0x74, 0x69, 0x6d, 0x65, 0x5f, 0x76, 0x65, 0x72, 0x73,
  0x69, 0x6f, 0x6e, 0x00, 0xf2, 0xf0, 0xff, 0xff, 0x04, 0x00, 0x00, 0x00,
  0x10, 0x00, 0x00, 0x00, 0x31, 0x2e, 0x31, 0x34, 0x2e, 0x30, 0x00, 0x00,
  0x00, 0x00, 0x00, 0x00, 0x00, 0x00, 0x00, 0x00, 0x0f, 0x00, 0x00, 0x00,
  0x4d, 0x4c, 0x49, 0x52, 0x20, 0x43, 0x6f, 0x6e, 0x76, 0x65, 0x72, 0x74,
  0x65, 0x64, 0x2e, 0x00, 0x00, 0x00, 0x0e, 0x00, 0x18, 0x00, 0x04, 0x00,
  0x08, 0x00, 0x0c, 0x00, 0x10, 0x00, 0x14, 0x00, 0x0e, 0x00, 0x00, 0x00,
  0x14, 0x00, 0x00, 0x00, 0x44, 0x00, 0x00, 0x00, 0x48, 0x00, 0x00, 0x00,
  0x4c, 0x00, 0x00, 0x00, 0x60, 0x00, 0x00, 0x00, 0x0c, 0x00, 0x00, 0x00,
  0x84, 0x0f, 0x00, 0x00, 0x10, 0x0f, 0x00, 0x00, 0x54, 0x0e, 0x00, 0x00,
  0xb0, 0x0d, 0x00, 0x00, 0xb0, 0x0c, 0x00, 0x00, 0xb0, 0x0b, 0x00, 0x00,
  0xac, 0x05, 0x00, 0x00, 0x9c, 0x04, 0x00, 0x00, 0xd0, 0x02, 0x00, 0x00,
  0xdc, 0x01, 0x00, 0x00, 0xfc, 0x00, 0x00, 0x00, 0x70, 0x00, 0x00, 0x00,
  0x01, 0x00, 0x00, 0x00, 0x00, 0x00, 0x00, 0x00, 0x01, 0x00, 0x00, 0x00,
  0x0b, 0x00, 0x00, 0x00, 0x05, 0x00, 0x00, 0x00, 0x30, 0x0c, 0x00, 0x00,
  0x2c, 0x05, 0x00, 0x00, 0x6c, 0x02, 0x00, 0x00, 0xa0, 0x00, 0x00, 0x00,
  0x18, 0x00, 0x00, 0x00, 0x04, 0x00, 0x00, 0x00, 0x6d, 0x61, 0x69, 0x6e,
  0x00, 0x00, 0x0a, 0x00, 0x10, 0x00, 0x04, 0x00, 0x08, 0x00, 0x0c, 0x00,
  0x0a, 0x00, 0x00, 0x00, 0x02, 0x00, 0x00, 0x00, 0x10, 0x00, 0x00, 0x00,
  0x04, 0x00, 0x00, 0x00, 0x01, 0x00, 0x00, 0x00, 0x0b, 0x00, 0x00, 0x00,
  0x01, 0x00, 0x00, 0x00, 0x0a, 0x00, 0x00, 0x00, 0xfc, 0xf3, 0xff, 0xff,
  0x06, 0x00, 0x00, 0x00, 0x00, 0x00, 0x00, 0x06, 0x02, 0x00, 0x00, 0x00,
  0x2c, 0xf1, 0xff, 0xff, 0x14, 0x00, 0x00, 0x00, 0x0c, 0x00, 0x00, 0x00,
  0x18, 0x00, 0x00, 0x00, 0x40, 0x00, 0x00, 0x00, 0x30, 0x00, 0x00, 0x00,
  0x02, 0x00, 0x00, 0x00, 0x01, 0x00, 0x00, 0x00, 0x03, 0x00, 0x00, 0x00,
  0x19, 0x00, 0x00, 0x00, 0x53, 0x74, 0x61, 0x74, 0x65, 0x66, 0x75, 0x6c,
  0x50, 0x61, 0x72, 0x74, 0x69, 0x74, 0x69, 0x6f, 0x6e, 0x65, 0x64, 0x43,
  0x61, 0x6c, 0x6c, 0x3a, 0x30, 0x00, 0x00, 0x00, 0x02, 0x00, 0x00, 0x00,
  0xff, 0xff, 0xff, 0xff, 0x03, 0x00, 0x00, 0x00, 0x14, 0xf1, 0xff, 0xff,
  0x46, 0xfe, 0xff, 0xff, 0x00, 0x00, 0x00, 0x08, 0x01, 0x00, 0x00, 0x00,
  0x18, 0x00, 0x00, 0x00, 0x0c, 0x00, 0x00, 0x00, 0x04, 0x00, 0x00, 0x00,
  0x30, 0xf1, 0xff, 0xff, 0x01, 0x00, 0x00, 0x00, 0x0a, 0x00, 0x00, 0x00,
  0x03, 0x00, 0x00, 0x00, 0x08, 0x00, 0x00, 0x00, 0x09, 0x00, 0x00, 0x00,
  0x03, 0x00, 0x00, 0x00, 0x78, 0xf4, 0xff, 0xff, 0x00, 0x00, 0x00, 0x09,
  0x14, 0x00, 0x00, 0x00, 0x0b, 0x00, 0x00, 0x00, 0x18, 0x00, 0x00, 0x00,
  0x68, 0x00, 0x00, 0x00, 0x58, 0x00, 0x00, 0x00, 0x02, 0x00, 0x00, 0x00,
  0x01, 0x00, 0x00, 0x00, 0x03, 0x00, 0x00, 0x00, 0x40, 0x00, 0x00, 0x00,
  0x73, 0x65, 0x71, 0x75, 0x65, 0x6e, 0x74, 0x69, 0x61, 0x6c, 0x2f, 0x71,
  0x75, 0x61, 0x6e, 0x74, 0x5f, 0x64, 0x65, 0x6e, 0x73, 0x65, 0x5f, 0x32,
  0x2f, 0x4d, 0x61, 0x74, 0x4d, 0x75, 0x6c, 0x3b, 0x73, 0x65, 0x71, 0x75,
  0x65, 0x6e, 0x74, 0x69, 0x61, 0x6c, 0x2f, 0x71, 0x75, 0x61, 0x6e, 0x74,
  0x5f, 0x64, 0x65, 0x6e, 0x73, 0x65, 0x5f, 0x32, 0x2f, 0x42, 0x69, 0x61,
  0x73, 0x41, 0x64, 0x64, 0x00, 0x00, 0x00, 0x00, 0x02, 0x00, 0x00, 0x00,
  0xff, 0xff, 0xff, 0xff, 0x03, 0x00, 0x00, 0x00, 0x5c, 0xf2, 0xff, 0xff,
  0x08, 0x00, 0x00, 0x00, 0x0c, 0x00, 0x00, 0x00, 0x01, 0x00, 0x00, 0x00,
  0x07, 0xfa, 0x63, 0x3d, 0x01, 0x00, 0x00, 0x00, 0x16, 0x00, 0x00, 0x00,
  0x00, 0x00, 0x00, 0x00, 0x00, 0x00, 0x00, 0x00, 0x12, 0xf3, 0xff, 0xff,
  0x04, 0x00, 0x00, 0x00, 0x30, 0x00, 0x00, 0x00, 0x30, 0x02, 0x92, 0x19,
  0x11, 0xda, 0xcb, 0xe7, 0xf1, 0x93, 0x06, 0x1d, 0x83, 0x2f, 0xba, 0xf3,
  0x23, 0x08, 0x9f, 0x1b, 0xc3, 0x4f, 0x4f, 0x4b, 0x52, 0xa4, 0xb4, 0x07,
  0xd5, 0xb7, 0x9f, 0x3e, 0x82, 0xb1, 0x1d, 0x8c, 0x59, 0x4b, 0xc9, 0x84,
  0x03, 0x25, 0xec, 0x7f, 0x5c, 0xbc, 0x56, 0x9e, 0xfa, 0xf2, 0xff, 0xff,
  0x00, 0x00, 0x00, 0x09, 0x10, 0x00, 0x00, 0x00, 0x0a, 0x00, 0x00, 0x00,
  0x14, 0x00, 0x00, 0x00, 0x74, 0x00, 0x00, 0x00, 0x02, 0x00, 0x00, 0x00,
  0x03, 0x00, 0x00, 0x00, 0x10, 0x00, 0x00, 0x00, 0x5f, 0x00, 0x00, 0x00,
  0x73, 0x65, 0x71, 0x75, 0x65, 0x6e, 0x74, 0x69, 0x61, 0x6c, 0x2f, 0x71,
  0x75, 0x61, 0x6e, 0x74, 0x5f, 0x64, 0x65, 0x6e, 0x73, 0x65, 0x5f, 0x32,
  0x2f, 0x4d, 0x61, 0x74, 0x4d, 0x75, 0x6c, 0x3b, 0x73, 0x65, 0x71, 0x75,
  0x65, 0x6e, 0x74, 0x69, 0x61, 0x6c, 0x2f, 0x71, 0x75, 0x61, 0x6e, 0x74,
  0x5f, 0x64, 0x65, 0x6e, 0x73, 0x65, 0x5f, 0x32, 0x2f, 0x4c, 0x61, 0x73,
  0x74, 0x56, 0x61, 0x6c, 0x75, 0x65, 0x51, 0x75, 0x61, 0x6e, 0x74, 0x2f,
  0x46, 0x61, 0x6b, 0x65, 0x51, 0x75, 0x61, 0x6e, 0x74, 0x57, 0x69, 0x74,
  0x68, 0x4d, 0x69, 0x6e, 0x4d, 0x61, 0x78, 0x56, 0x61, 0x72, 0x73, 0x00,
  0x44, 0xf3, 0xff, 0xff, 0x08, 0x00, 0x00, 0x00, 0x0c, 0x00, 0x00, 0x00,
  0x01, 0x00, 0x00, 0x00, 0xfe, 0x72, 0xfa, 0x3b, 0x01, 0x00, 0x00, 0x00,
  0x00, 0x00, 0x00, 0x00, 0x00, 0x00, 0x00, 0x00, 0x00, 0x00, 0x0e, 0x00,
  0x18, 0x00, 0x08, 0x00, 0x0c, 0x00, 0x10, 0x00, 0x07, 0x00, 0x14, 0x00,
  0x0e, 0x00, 0x00, 0x00, 0x00, 0x00, 0x00, 0x08, 0x01, 0x00, 0x00, 0x00,
  0x1c, 0x00, 0x00, 0x00, 0x10, 0x00, 0x00, 0x00, 0x04, 0x00, 0x00, 0x00,
  0x42, 0xfd, 0xff, 0xff, 0x00, 0x00, 0x00, 0x01, 0x01, 0x00, 0x00, 0x00,
  0x08, 0x00, 0x00, 0x00, 0x03, 0x00, 0x00, 0x00, 0x06, 0x00, 0x00, 0x00,
  0x07, 0x00, 0x00, 0x00, 0x02, 0x00, 0x00, 0x00, 0x44, 0xf6, 0xff, 0xff,
  0x00, 0x00, 0x00, 0x09, 0x14, 0x00, 0x00, 0x00, 0x09, 0x00, 0x00, 0x00,
  0x18, 0x00, 0x00, 0x00, 0x84, 0x00, 0x00, 0x00, 0x74, 0x00, 0x00, 0x00,
  0x02, 0x00, 0x00, 0x00, 0x01, 0x00, 0x00, 0x00, 0x10, 0x00, 0x00, 0x00,
  0x5e, 0x00, 0x00, 0x00, 0x73, 0x65, 0x71, 0x75, 0x65, 0x6e, 0x74, 0x69,
  0x61, 0x6c, 0x2f, 0x71, 0x75, 0x61, 0x6e, 0x74, 0x5f, 0x64, 0x65, 0x6e,
  0x73, 0x65, 0x5f, 0x31, 0x2f, 0x4d, 0x61, 0x74, 0x4d, 0x75, 0x6c, 0x3b,
  0x73, 0x65, 0x71, 0x75, 0x65, 0x6e, 0x74, 0x69, 0x61, 0x6c, 0x2f, 0x71,
  0x75, 0x61, 0x6e, 0x74, 0x5f, 0x64, 0x65, 0x6e, 0x73, 0x65, 0x5f, 0x31,
  0x2f, 0x52, 0x65, 0x6c, 0x75, 0x3b, 0x73, 0x65, 0x71, 0x75, 0x65, 0x6e,
  0x74, 0x69, 0x61, 0x6c, 0x2f, 0x71, 0x75, 0x61, 0x6e, 0x74, 0x5f, 0x64,
  0x65, 0x6e, 0x73, 0x65, 0x5f, 0x31, 0x2f, 0x42, 0x69, 0x61, 0x73, 0x41,
  0x64, 0x64, 0x00, 0x00, 0x02, 0x00, 0x00, 0x00, 0xff, 0xff, 0xff, 0xff,
  0x10, 0x00, 0x00, 0x00, 0x44, 0xf4, 0xff, 0xff, 0x08, 0x00, 0x00, 0x00,
  0x0c, 0x00, 0x00, 0x00, 0x01, 0x00, 0x00, 0x00, 0xf8, 0xc9, 0x11, 0x3d,
  0x01, 0x00, 0x00, 0x00, 0xe8, 0xff, 0xff, 0xff, 0xff, 0xff, 0xff, 0xff,
  0x00, 0x00, 0x00, 0x00, 0xfa, 0xf4, 0xff, 0xff, 0x04, 0x00, 0x00, 0x00,
  0x00, 0x01, 0x00, 0x00, 0x32, 0xf5, 0x0f, 0xcd, 0x48, 0xbe, 0x56, 0xb4,
  0x3f, 0xe6, 0x1f, 0xfe, 0x3e, 0x29, 0x59, 0xb0, 0x24, 0xff, 0x33, 0xed,
  0x53, 0xf8, 0x47, 0xea, 0x63, 0xcb, 0x06, 0x44, 0xf8, 0x5a, 0x61, 0xd1,
  0x07, 0xeb, 0x2f, 0x29, 0xf7, 0x71, 0x9a, 0x3c, 0xfa, 0x32, 0xfe, 0x99,
  0xde, 0xc6, 0xbe, 0x2a, 0x0a, 0x4d, 0x44, 0xad, 0x26, 0xdd, 0x62, 0xf2,
  0x46, 0xe9, 0x3c, 0x4e, 0x1d, 0x45, 0x47, 0xdc, 0x06, 0xc6, 0xeb, 0x1b,
  0x06, 0x4c, 0xea, 0xfb, 0xe2, 0x57, 0xdb, 0x1c, 0xdc, 0xef, 0xfa, 0x3b,
  0x2d, 0xfe, 0x65, 0x4b, 0x19, 0x4c, 0xf0, 0x29, 0x3d, 0xf7, 0xf6, 0xfb,
  0xc3, 0xc3, 0x00, 0x4d, 0x45, 0x36, 0x3a, 0xe4, 0xe1, 0x0e, 0x02, 0xf5,
  0x00, 0xe3, 0x03, 0x01, 0xcb, 0xf7, 0x2e, 0xdb, 0x37, 0x5b, 0x27, 0x01,
  0xe3, 0xe4, 0x3a, 0xe0, 0x2b, 0xde, 0x30, 0xda, 0xbd, 0xfe, 0x13, 0x0f,
  0xfa, 0x58, 0x1b, 0x14, 0x0d, 0x14, 0x15, 0xda, 0x5b, 0xee, 0xeb, 0xd3,
  0xfa, 0xe9, 0x1c, 0x2d, 0xde, 0x01, 0x2a, 0x7d, 0xe8, 0x6a, 0xc3, 0x61,
  0xe2, 0x7f, 0xf0, 0xb9, 0x0d, 0xc1, 0xa6, 0x4d, 0xd9, 0xe6, 0xb1, 0xf0,
  0x13, 0xfe, 0x21, 0x0c, 0x0f, 0x65, 0xf4, 0x08, 0x54, 0x3c, 0xe3, 0xed,
  0xfd, 0x0b, 0xe7, 0x69, 0xf3, 0x20, 0xbd, 0x4a, 0xee, 0x50, 0xfd, 0xa4,
  0x0f, 0x1f, 0xf4, 0x3d, 0xc6, 0x28, 0x4c, 0x18, 0x0a, 0x66, 0xff, 0x75,
  0xda, 0x2d, 0xd1, 0xb3, 0xcc, 0xe1, 0xc3, 0x43, 0x02, 0x08, 0xa0, 0xff,
  0xf5, 0xbd, 0xf0, 0xde, 0xe7, 0xfb, 0x42, 0x25, 0x42, 0x52, 0xe3, 0xc5,
  0xf8, 0xbd, 0x0c, 0x6e, 0xcf, 0x2d, 0xaa, 0x74, 0xce, 0x74, 0x12, 0x9e,
  0x10, 0x11, 0xdc, 0xf6, 0x53, 0x29, 0x65, 0xc5, 0xf3, 0xfc, 0x25, 0xcb,
  0x5e, 0xe4, 0xfc, 0xff, 0xd4, 0x1a, 0xf8, 0xe6, 0xb2, 0xf5, 0xff, 0xff,
  0x00, 0x00, 0x00, 0x09, 0x10, 0x00, 0x00, 0x00, 0x08, 0x00, 0x00, 0x00,
  0x14, 0x00, 0x00, 0x00, 0x74, 0x00, 0x00, 0x00, 0x02, 0x00, 0x00, 0x00,
  0x10, 0x00, 0x00, 0x00, 0x10, 0x00, 0x00, 0x00, 0x5f, 0x00, 0x00, 0x00,
  0x73, 0x65, 0x71, 0x75, 0x65, 0x6e, 0x74, 0x69, 0x61, 0x6c, 0x2f, 0x71,
  0x75, 0x61, 0x6e, 0x74, 0x5f, 0x64, 0x65, 0x6e, 0x73, 0x65, 0x5f, 0x31,
  0x2f, 0x4d, 0x61, 0x74, 0x4d, 0x75, 0x6c, 0x3b, 0x73, 0x65, 0x71, 0x75,
  0x65, 0x6e, 0x74, 0x69, 0x61, 0x6c, 0x2f, 0x71, 0x75, 0x61, 0x6e, 0x74,
  0x5f, 0x64, 0x65, 0x6e, 0x73, 0x65, 0x5f, 0x31, 0x2f, 0x4c, 0x61, 0x73,
  0x74, 0x56, 0x61, 0x6c, 0x75, 0x65, 0x51, 0x75, 0x61, 0x6e, 0x74, 0x2f,
  0x46, 0x61, 0x6b, 0x65, 0x51, 0x75, 0x61, 0x6e, 0x74, 0x57, 0x69, 0x74,
  0x68, 0x4d, 0x69, 0x6e, 0x4d, 0x61, 0x78, 0x56, 0x61, 0x72, 0x73, 0x00,
  0xfc, 0xf5, 0xff, 0xff, 0x08, 0x00, 0x00, 0x00, 0x0c, 0x00, 0x00, 0x00,
  0x01, 0x00, 0x00, 0x00, 0xda, 0xe5, 0xed, 0x3b, 0x01, 0x00, 0x00, 0x00,
  0x00, 0x00, 0x00, 0x00, 0x00, 0x00, 0x00, 0x00, 0x00, 0x00, 0x00, 0x00,
  0x00, 0x00, 0x0e, 0x00, 0x1a, 0x00, 0x08, 0x00, 0x0c, 0x00, 0x10, 0x00,
  0x07, 0x00, 0x14, 0x00, 0x0e, 0x00, 0x00, 0x00, 0x00, 0x00, 0x00, 0x08,
  0x01, 0x00, 0x00, 0x00, 0x24, 0x00, 0x00, 0x00, 0x18, 0x00, 0x00, 0x00,
  0x0c, 0x00, 0x00, 0x00, 0x00, 0x00, 0x06, 0x00, 0x08, 0x00, 0x07, 0x00,
  0x06, 0x00, 0x00, 0x00, 0x00, 0x00, 0x00, 0x01, 0x01, 0x00, 0x00, 0x00,
  0x06, 0x00, 0x00, 0x00, 0x03, 0x00, 0x00, 0x00, 0x04, 0x00, 0x00, 0x00,
  0x05, 0x00, 0x00, 0x00, 0x01, 0x00, 0x00, 0x00, 0x24, 0xf9, 0xff, 0xff,
  0x09, 0x00, 0x00, 0x00, 0x00, 0x00, 0x00, 0x09, 0x04, 0x00, 0x00, 0x00,
  0x18, 0xf9, 0xff, 0xff, 0x00, 0x00, 0x00, 0x09, 0x14, 0x00, 0x00, 0x00,
  0x07, 0x00, 0x00, 0x00, 0x18, 0x00, 0x00, 0x00, 0x80, 0x00, 0x00, 0x00,
  0x70, 0x00, 0x00, 0x00, 0x02, 0x00, 0x00, 0x00, 0x01, 0x00, 0x00, 0x00,
  0x10, 0x00, 0x00, 0x00, 0x58, 0x00, 0x00, 0x00, 0x73, 0x65, 0x71, 0x75,
  0x65, 0x6e, 0x74, 0x69, 0x61, 0x6c, 0x2f, 0x71, 0x75, 0x61, 0x6e, 0x74,
  0x5f, 0x64, 0x65, 0x6e, 0x73, 0x65, 0x2f, 0x4d, 0x61, 0x74, 0x4d, 0x75,
  0x6c, 0x3b, 0x73, 0x65, 0x71, 0x75, 0x65, 0x6e, 0x74, 0x69, 0x61, 0x6c,
  0x2f, 0x71, 0x75, 0x61, 0x6e, 0x74, 0x5f, 0x64, 0x65, 0x6e, 0x73, 0x65,
  0x2f, 0x52, 0x65, 0x6c, 0x75, 0x3b, 0x73, 0x65, 0x71, 0x75, 0x65, 0x6e,
  0x74, 0x69, 0x61, 0x6c, 0x2f, 0x71, 0x75, 0x61, 0x6e, 0x74, 0x5f, 0x64,
  0x65, 0x6e, 0x73, 0x65, 0x2f, 0x42, 0x69, 0x61, 0x73, 0x41, 0x64, 0x64,
  0x00, 0x00, 0x00, 0x00, 0x02, 0x00, 0x00, 0x00, 0xff, 0xff, 0xff, 0xff,
  0x10, 0x00, 0x00, 0x00, 0x14, 0xf7, 0xff, 0xff, 0x08, 0x00, 0x00, 0x00,
  0x0c, 0x00, 0x00, 0x00, 0x01, 0x00, 0x00, 0x00, 0xac, 0xa8, 0x01, 0x3d,
  0x01, 0x00, 0x00, 0x00, 0xf5, 0xff, 0xff, 0xff, 0xff, 0xff, 0xff, 0xff,
  0xc6, 0xf7, 0xff, 0xff, 0x04, 0x00, 0x00, 0x00, 0x40, 0x05, 0x00, 0x00,
  0x20, 0xe2, 0xcf, 0x11, 0xfb, 0xac, 0x28, 0xdd, 0x27, 0x29, 0x13, 0x0c,
  0xcc, 0x18, 0x27, 0xfa, 0x03, 0x18, 0x3f, 0xe3, 0xd9, 0x1d, 0x0a, 0xe0,
  0xc9, 0xec, 0x0b, 0x21, 0x1b, 0xfb, 0x29, 0x03, 0xc4, 0x20, 0x02, 0xf3,
  0x28, 0x33, 0xef, 0x31, 0x11, 0xf4, 0x4e, 0x11, 0xcf, 0x1d, 0x1d, 0xf3,
  0x1b, 0x33, 0xda, 0x14, 0x48, 0xe2, 0x12, 0x20, 0x05, 0x42, 0x4d, 0xe1,
  0x1e, 0x2b, 0xc4, 0x0e, 0x34, 0xba, 0x54, 0x35, 0xc6, 0x23, 0x02, 0x06,
  0x0a, 0x15, 0xea, 0xfe, 0x39, 0xd5, 0x3e, 0x18, 0xcc, 0xea, 0x13, 0xef,
  0x13, 0x1b, 0xff, 0x03, 0xf6, 0xf9, 0xcf, 0xe5, 0xd5, 0x16, 0xea, 0xcb,
  0xe0, 0xd9, 0xd8, 0x0c, 0x17, 0x14, 0x06, 0x04, 0x13, 0x08, 0x3b, 0xf1,
  0x05, 0x31, 0xf0, 0x1e, 0x23, 0x06, 0x03, 0xf0, 0x23, 0xde, 0x1e, 0x03,
  0xef, 0xf0, 0xc8, 0x14, 0x07, 0x1f, 0x29, 0x26, 0xf8, 0x1a, 0x17, 0x0b,
  0xd8, 0xf8, 0xd9, 0x2e, 0xed, 0xfd, 0xf4, 0x40, 0xda, 0x0e, 0x17, 0xf8,
  0x19, 0x04, 0xe4, 0xf0, 0x18, 0x18, 0x2b, 0x0f, 0xfb, 0xd9, 0xcf, 0xed,
  0x25, 0xfa, 0xee, 0xd5, 0xdc, 0xd5, 0xe3, 0xe5, 0xf5, 0xd9, 0xe0, 0x15,
  0xdf, 0xfa, 0xeb, 0x1a, 0xed, 0x49, 0xba, 0x0a, 0x05, 0xfd, 0x0d, 0xf5,
  0xe1, 0x2c, 0x28, 0xcf, 0x05, 0x2f, 0x20, 0x0c, 0xe8, 0xde, 0xe1, 0xce,
  0xeb, 0x03, 0xd0, 0xd2, 0xd6, 0xdc, 0x0d, 0xe2, 0xbb, 0xe7, 0xea, 0x06,
  0x0d, 0x49, 0xf2, 0x24, 0x0d, 0xf0, 0x1c, 0x44, 0x26, 0xfe, 0x15, 0x01,
  0xf4, 0x20, 0x07, 0x15, 0x0a, 0xe4, 0xf7, 0xfa, 0xf6, 0x37, 0xf8, 0xce,
  0x01, 0x38, 0xba, 0x25, 0x12, 0xf9, 0x15, 0x10, 0xe5, 0x25, 0x07, 0xcc,
  0x32, 0x27, 0x10, 0xfc, 0x02, 0xf8, 0xf4, 0x16, 0xf8, 0x02, 0xd5, 0xeb,
  0xe6, 0xcd, 0x34, 0x00, 0x11, 0x18, 0x06, 0x14, 0xf7, 0x18, 0xf8, 0xec,
  0xe9, 0xd6, 0xdd, 0x2b, 0x11, 0xe7, 0x18, 0xf3, 0xdb, 0x1b, 0xc7, 0xf5,
  0xd7, 0xc6, 0xf2, 0x05, 0x20, 0xc6, 0x1e, 0x07, 0xea, 0xf7, 0x02, 0xc0,
  0xc1, 0xbf, 0xde, 0xce, 0x06, 0xe6, 0x12, 0xfd, 0xe1, 0xb6, 0xdc, 0xe0,
  0xe8, 0xbd, 0x9a, 0xef, 0xbd, 0xd1, 0xee, 0x1c, 0x9d, 0xf5, 0xa3, 0xd1,
  0xcb, 0xa3, 0x0f, 0xd6, 0xcb, 0xf7, 0xd4, 0xf2, 0x09, 0x00, 0xb9, 0x14,
  0xdb, 0xc5, 0x33, 0xe2, 0x16, 0xdb, 0xd5, 0x10, 0x0e, 0xcf, 0xd1, 0x40,
  0xd1, 0x13, 0xee, 0x19, 0x17, 0xc9, 0x00, 0x19, 0xdf, 0x1e, 0x04, 0xf6,
  0xe9, 0x02, 0xe4, 0x03, 0xf8, 0xf2, 0x2d, 0xd3, 0x21, 0x17, 0x13, 0xd3,
  0x32, 0x2d, 0xf1, 0x10, 0xff, 0x1f, 0xf7, 0x0a, 0x35, 0x34, 0x25, 0x1e,
  0x10, 0x3e, 0x1e, 0x20, 0xec, 0x05, 0x29, 0x08, 0x23, 0x33, 0x05, 0x1b,
  0x12, 0xf0, 0x0f, 0x32, 0x0c, 0x41, 0x28, 0x27, 0x3e, 0xf1, 0x13, 0x2c,
  0xf1, 0x1e, 0x07, 0xfa, 0xed, 0x12, 0x0e, 0xdc, 0x12, 0xdd, 0x0b, 0xf9,
  0x1e, 0xec, 0xff, 0x24, 0xff, 0x1f, 0xdc, 0xd6, 0xd2, 0x29, 0x2e, 0xc1,
  0x08, 0xfb, 0x64, 0x04, 0xff, 0xfe, 0xf9, 0x04, 0x2a, 0x03, 0xfe, 0xdc,
  0xfc, 0x0b, 0xe7, 0xfb, 0xf5, 0x0f, 0xf4, 0xfe, 0x06, 0x13, 0xd0, 0xe7,
  0xcf, 0xeb, 0xf0, 0x1c, 0xf5, 0xbd, 0xfd, 0x04, 0xe1, 0xc7, 0xde, 0xcf,
  0xe7, 0xe4, 0xbe, 0x03, 0xd9, 0xfb, 0xe0, 0xe1, 0xc2, 0xbe, 0xd7, 0xa4,
  0xd7, 0xd0, 0xa7, 0xb3, 0x81, 0xa2, 0x0b, 0xde, 0xc1, 0xc2, 0xa3, 0xce,
  0xe5, 0xe2, 0xc4, 0xb7, 0xcc, 0x00, 0xc4, 0xb7, 0xc0, 0xed, 0x07, 0x11,
  0xe5, 0xe7, 0xf4, 0xf1, 0xf3, 0xdd, 0xcd, 0x0d, 0xd1, 0xf0, 0x02, 0x22,
  0x22, 0xe6, 0x8c, 0x05, 0x04, 0xa6, 0x13, 0xf9, 0xf1, 0x39, 0x02, 0xf2,
  0x19, 0xe6, 0x19, 0xf6, 0xff, 0xeb, 0x15, 0x03, 0x27, 0x23, 0xf8, 0xe8,
  0x18, 0x00, 0x17, 0x2a, 0xe8, 0x08, 0x04, 0x09, 0x12, 0x45, 0x21, 0xe3,
  0x2b, 0x26, 0x16, 0x37, 0x53, 0xe4, 0x58, 0x3d, 0x10, 0x22, 0x5e, 0x14,
  0x37, 0x1d, 0x20, 0x24, 0x60, 0x13, 0x2e, 0x40, 0xf6, 0x4c, 0x15, 0x06,
  0x24, 0x1a, 0xd9, 0x3f, 0x3a, 0x1b, 0x47, 0x26, 0x10, 0x12, 0xf2, 0x0c,
  0x10, 0x43, 0xd4, 0x30, 0xf7, 0xf1, 0x0f, 0x2c, 0xd2, 0x16, 0x26, 0xea,
  0x0b, 0xf8, 0x50, 0x13, 0xe8, 0x30, 0x0f, 0xea, 0x04, 0xb9, 0x04, 0xea,
  0xea, 0x0b, 0x0b, 0x1f, 0xde, 0xdb, 0x01, 0x12, 0xda, 0xed, 0x0e, 0xc9,
  0xf9, 0xd2, 0xe3, 0xce, 0x26, 0xd4, 0x13, 0xd7, 0xc2, 0xef, 0xe9, 0xe4,
  0xb9, 0xc9, 0xdf, 0xb2, 0xcc, 0xd1, 0xd5, 0xe4, 0xad, 0xc5, 0xf7, 0xea,
  0xe3, 0x08, 0xb4, 0xc4, 0xa9, 0xda, 0xe8, 0xf2, 0xc9, 0xfb, 0xbe, 0xc4,
  0xdf, 0xc4, 0xac, 0xe3, 0xe5, 0xe1, 0xea, 0xd2, 0xc7, 0x10, 0xd2, 0xfc,
  0xf5, 0xdf, 0x32, 0xd6, 0xff, 0x15, 0xea, 0xc4, 0xf1, 0xbe, 0xe8, 0x2a,
  0xec, 0x15, 0x94, 0x01, 0xfd, 0xe9, 0x02, 0xfd, 0x02, 0x49, 0x04, 0x1a,
  0x1e, 0xd8, 0x21, 0x19, 0x15, 0xf5, 0x29, 0xf6, 0xe0, 0x15, 0x07, 0x27,
  0xe1, 0xe5, 0x14, 0xe5, 0x1f, 0xd6, 0x0e, 0x22, 0xfc, 0x26, 0x40, 0xe0,
  0x50, 0xfe, 0xbd, 0x67, 0x3b, 0xd1, 0x3c, 0x4c, 0xc4, 0x2e, 0x3c, 0xfc,
  0x17, 0x11, 0xe7, 0x3d, 0x26, 0x0b, 0x0f, 0x5e, 0x0e, 0x50, 0x01, 0xff,
  0x13, 0x42, 0xa9, 0x08, 0x2f, 0xbd, 0x23, 0x4c, 0xf0, 0x23, 0x07, 0xbc,
  0x07, 0x11, 0xfd, 0x0c, 0x32, 0xe6, 0x06, 0x43, 0xf0, 0x14, 0xf5, 0x01,
  0xfc, 0x07, 0x3f, 0xee, 0xed, 0x04, 0xf0, 0xe8, 0xbf, 0x19, 0x11, 0xcf,
  0x3a, 0xeb, 0xf6, 0xd3, 0xda, 0xf0, 0xd4, 0xf1, 0xd0, 0xf4, 0xf1, 0xd0,
  0xff, 0x1e, 0xdc, 0xcc, 0xf1, 0xee, 0xd6, 0xef, 0x09, 0x17, 0xda, 0xc8,
  0xbc, 0xb6, 0xe7, 0xc5, 0xed, 0xbe, 0xe8, 0xee, 0xb5, 0xd9, 0x28, 0xf4,
  0xc9, 0xdd, 0xb2, 0xd2, 0xf9, 0xab, 0xd1, 0xf3, 0xc1, 0xd7, 0x0c, 0xe8,
  0xdb, 0x10, 0x0b, 0xcd, 0xd6, 0x0e, 0xe6, 0xcd, 0xf9, 0x06, 0xf9, 0x3e,
  0x1f, 0xe8, 0xe4, 0xdc, 0xe7, 0xd6, 0xf2, 0x00, 0x36, 0x13, 0xef, 0x02,
  0xec, 0x08, 0xeb, 0x1d, 0x07, 0xba, 0x1d, 0xf4, 0xfd, 0xfa, 0xe3, 0xc9,
  0x1f, 0x20, 0xd9, 0xfa, 0xf5, 0x10, 0x18, 0x2e, 0xd4, 0x13, 0x14, 0x2a,
  0x35, 0x05, 0x1f, 0x28, 0xd4, 0x03, 0x15, 0x19, 0x24, 0x2f, 0x49, 0x05,
  0x31, 0x4c, 0x0f, 0x0d, 0x00, 0x00, 0x45, 0x09, 0x3a, 0x14, 0x24, 0xff,
  0x2a, 0xf7, 0xff, 0x35, 0x28, 0x3e, 0xe1, 0xf4, 0x0f, 0xff, 0x27, 0x20,
  0x0f, 0x2f, 0x13, 0x3d, 0x02, 0x36, 0x31, 0xe4, 0x28, 0xff, 0x10, 0x19,
  0xef, 0x05, 0xfe, 0xf7, 0xdd, 0x01, 0xed, 0xe1, 0xd3, 0x1d, 0x25, 0xe5,
  0x1b, 0xea, 0xb4, 0xf3, 0x15, 0x04, 0xec, 0x25, 0xff, 0xee, 0x29, 0xc2,
  0x07, 0x2b, 0x1c, 0xf3, 0x01, 0x1b, 0xe1, 0x38, 0x0c, 0xe8, 0x3d, 0x1c,
  0x2e, 0x11, 0xef, 0x00, 0x08, 0x2c, 0x0e, 0xfe, 0x03, 0xf5, 0x3f, 0x52,
  0x12, 0x24, 0x5e, 0xf8, 0x08, 0x0a, 0xfb, 0x34, 0x6f, 0x14, 0xfb, 0x15,
  0x02, 0x1b, 0x13, 0x4e, 0x0c, 0x2e, 0xd3, 0x2e, 0x5e, 0xfe, 0x0b, 0x3b,
  0x0c, 0x32, 0x30, 0x44, 0x33, 0x23, 0x07, 0x03, 0x2b, 0xd7, 0xfd, 0x1a,
  0xf4, 0x08, 0xef, 0x00, 0xfd, 0x0b, 0x10, 0xf7, 0x22, 0x1f, 0x02, 0x0e,
  0xde, 0x22, 0x22, 0xeb, 0x25, 0xe5, 0x19, 0x06, 0xe9, 0x18, 0xe7, 0xe4,
  0x23, 0x17, 0xcc, 0xdf, 0xf3, 0x0b, 0xf1, 0x11, 0x20, 0x2e, 0x10, 0x01,
  0x31, 0x29, 0x26, 0xe2, 0x29, 0x11, 0xec, 0xe5, 0xf6, 0x02, 0x1a, 0x05,
  0xed, 0x1a, 0x59, 0xfa, 0xe0, 0x4f, 0xd8, 0xd7, 0x3e, 0xc1, 0xb8, 0x0e,
  0x25, 0x1c, 0x40, 0xff, 0xc5, 0x2a, 0xda, 0xf1, 0x52, 0x04, 0xd7, 0x1b,
  0x11, 0xf6, 0x71, 0xf5, 0xf5, 0x2a, 0xc6, 0xb1, 0xfa, 0xc7, 0xe2, 0x30,
  0x03, 0xdf, 0x0f, 0xe1, 0x03, 0x10, 0xf9, 0xe5, 0x0c, 0x1f, 0xec, 0x06,
  0xe6, 0xdc, 0xdf, 0xe2, 0xe1, 0xe7, 0x25, 0xe5, 0xf0, 0x19, 0xe0, 0x00,
  0x3f, 0x0f, 0xfb, 0x15, 0x27, 0x0c, 0xe8, 0xcd, 0xf6, 0x07, 0xfb, 0xe9,
  0xfb, 0xdf, 0x2e, 0xd7, 0xd6, 0xd5, 0xf7, 0xe9, 0xec, 0xd9, 0xcf, 0x1a,
  0xff, 0x4d, 0x08, 0xeb, 0x24, 0xf2, 0x1b, 0x24, 0xfb, 0xef, 0xfe, 0xd5,
  0xd5, 0xcf, 0x05, 0x12, 0x36, 0x07, 0xcd, 0xf1, 0x00, 0x2a, 0x23, 0x0c,
  0xd6, 0xe7, 0xfd, 0x1b, 0x1e, 0x3c, 0xce, 0xfd, 0xfa, 0x03, 0x19, 0xef,
  0x15, 0xf0, 0x05, 0x14, 0xd3, 0x02, 0xf1, 0x22, 0xb0, 0xf7, 0x0b, 0xc7,
  0xff, 0x22, 0xa8, 0x05, 0x06, 0xb1, 0x0b, 0x09, 0xda, 0x01, 0x22, 0x21,
  0xf0, 0x05, 0x14, 0x0a, 0x06, 0x2d, 0xf7, 0x0a, 0xf0, 0xf1, 0x09, 0xfd,
  0x33, 0xeb, 0xd9, 0xf4, 0x06, 0xf4, 0x30, 0x42, 0x02, 0x20, 0x31, 0xf5,
  0x42, 0x31, 0xf2, 0x5a, 0x61, 0xf8, 0x27, 0x64, 0x27, 0x42, 0x2d, 0xe2,
  0x4d, 0x1c, 0xdb, 0x4b, 0x30, 0x15, 0x25, 0x5b, 0x2c, 0x4e, 0x40, 0xee,
  0x42, 0x3c, 0xf1, 0x06, 0x2e, 0xe4, 0x1c, 0x33, 0xfe, 0xed, 0x21, 0xd1,
  0x27, 0x20, 0xde, 0x0c, 0x29, 0x22, 0x26, 0x13, 0x19, 0x0a, 0x24, 0x06,
  0x01, 0xc3, 0x0b, 0x10, 0x24, 0x3e, 0xf3, 0xf4, 0xed, 0xf7, 0xdc, 0xf4,
  0xf2, 0xe1, 0x0c, 0x35, 0xfd, 0x01, 0x00, 0xed, 0xe6, 0xec, 0xaf, 0xd6,
  0x19, 0xc9, 0xb0, 0x32, 0x22, 0x07, 0x16, 0xff, 0xf6, 0xc8, 0xd6, 0xb6,
  0x1a, 0xdc, 0xe4, 0xf1, 0x09, 0x1a, 0xe0, 0x21, 0xf9, 0xda, 0x10, 0xbd,
  0x12, 0xfb, 0xc0, 0xca, 0xc0, 0xb9, 0x08, 0xed, 0xa6, 0xc3, 0xea, 0xe9,
  0xd2, 0xf1, 0xf2, 0xb4, 0xb7, 0x03, 0xe4, 0xfe, 0xe2, 0x14, 0xe3, 0xdf,
  0xf7, 0x31, 0x2c, 0x0d, 0xe9, 0x0d, 0x25, 0x2e, 0x1a, 0x00, 0xae, 0x04,
  0xbe, 0xfc, 0xff, 0xff, 0x00, 0x00, 0x00, 0x09, 0x10, 0x00, 0x00, 0x00,
  0x06, 0x00, 0x00, 0x00, 0x14, 0x00, 0x00, 0x00, 0x70, 0x00, 0x00, 0x00,
  0x02, 0x00, 0x00, 0x00, 0x10, 0x00, 0x00, 0x00, 0x54, 0x00, 0x00, 0x00,
  0x5b, 0x00, 0x00, 0x00, 0x73, 0x65, 0x71, 0x75, 0x65, 0x6e, 0x74, 0x69,
  0x61, 0x6c, 0x2f, 0x71, 0x75, 0x61, 0x6e, 0x74, 0x5f, 0x64, 0x65, 0x6e,
  0x73, 0x65, 0x2f, 0x4d, 0x61, 0x74, 0x4d, 0x75, 0x6c, 0x3b, 0x73, 0x65,
  0x71, 0x75, 0x65, 0x6e, 0x74, 0x69, 0x61, 0x6c, 0x2f, 0x71, 0x75, 0x61,
  0x6e, 0x74, 0x5f, 0x64, 0x65, 0x6e, 0x73, 0x65, 0x2f, 0x4c, 0x61, 0x73,
  0x74, 0x56, 0x61, 0x6c, 0x75, 0x65, 0x51, 0x75, 0x61, 0x6e, 0x74, 0x2f,
  0x46, 0x61, 0x6b, 0x65, 0x51, 0x75, 0x61, 0x6e, 0x74, 0x57, 0x69, 0x74,
  0x68, 0x4d, 0x69, 0x6e, 0x4d, 0x61, 0x78, 0x56, 0x61, 0x72, 0x73, 0x00,
  0x04, 0xfd, 0xff, 0xff, 0x08, 0x00, 0x00, 0x00, 0x0c, 0x00, 0x00, 0x00,
  0x01, 0x00, 0x00, 0x00, 0x22, 0xc7, 0xa9, 0x3b, 0x01, 0x00, 0x00, 0x00,
  0x00, 0x00, 0x00, 0x00, 0x00, 0x00, 0x00, 0x00, 0x00, 0x00, 0x0a, 0x00,
  0x0c, 0x00, 0x00, 0x00, 0x04, 0x00, 0x08, 0x00, 0x0a, 0x00, 0x00, 0x00,
  0x10, 0x00, 0x00, 0x00, 0x04, 0x00, 0x00, 0x00, 0x01, 0x00, 0x00, 0x00,
  0x04, 0x00, 0x00, 0x00, 0x01, 0x00, 0x00, 0x00, 0x00, 0x00, 0x00, 0x00,
  0x0c, 0x00, 0x10, 0x00, 0x0b, 0x00, 0x00, 0x00, 0x0c, 0x00, 0x04, 0x00,
  0x0c, 0x00, 0x00, 0x00, 0x72, 0x00, 0x00, 0x00, 0x00, 0x00, 0x00, 0x72,
  0x01, 0x00, 0x00, 0x00, 0x14, 0x00, 0x1c, 0x00, 0x08, 0x00, 0x07, 0x00,
  0x0c, 0x00, 0x10, 0x00, 0x14, 0x00, 0x00, 0x00, 0x00, 0x00, 0x18, 0x00,
  0x14, 0x00, 0x00, 0x00, 0x00, 0x00, 0x00, 0x09, 0x14, 0x00, 0x00, 0x00,
  0x05, 0x00, 0x00, 0x00, 0x18, 0x00, 0x00, 0x00, 0xac, 0x00, 0x00, 0x00,
  0x9c, 0x00, 0x00, 0x00, 0x02, 0x00, 0x00, 0x00, 0x01, 0x00, 0x00, 0x00,
  0x54, 0x00, 0x00, 0x00, 0x87, 0x00, 0x00, 0x00, 0x73, 0x65, 0x71, 0x75,
  0x65, 0x6e, 0x74, 0x69, 0x61, 0x6c, 0x2f, 0x71, 0x75, 0x61, 0x6e, 0x74,
  0x69, 0x7a, 0x65, 0x5f, 0x6c, 0x61, 0x79, 0x65, 0x72, 0x2f, 0x41, 0x6c,
  0x6c, 0x56, 0x61, 0x6c, 0x75, 0x65, 0x73, 0x51, 0x75, 0x61, 0x6e, 0x74,
  0x69, 0x7a, 0x65, 0x2f, 0x46, 0x61, 0x6b, 0x65, 0x51, 0x75, 0x61, 0x6e,
  0x74, 0x57, 0x69, 0x74, 0x68, 0x4d, 0x69, 0x6e, 0x4d, 0x61, 0x78, 0x56,
  0x61, 0x72, 0x73, 0x3b, 0x71, 0x75, 0x61, 0x6e, 0x74, 0x69, 0x7a, 0x65,
  0x5f, 0x6c, 0x61, 0x79, 0x65, 0x72, 0x2f, 0x71, 0x75, 0x61, 0x6e, 0x74,
  0x69, 0x7a, 0x65, 0x5f, 0x6c, 0x61, 0x79, 0x65, 0x72, 0x5f, 0x6d, 0x69,
  0x6e, 0x3b, 0x71, 0x75, 0x61, 0x6e, 0x74, 0x69, 0x7a, 0x65, 0x5f, 0x6c,
  0x61, 0x79, 0x65, 0x72, 0x2f, 0x71, 0x75, 0x61, 0x6e, 0x74, 0x69, 0x7a,
  0x65, 0x5f, 0x6c, 0x61, 0x79, 0x65, 0x72, 0x5f, 0x6d, 0x61, 0x78, 0x00,
  0x02, 0x00, 0x00, 0x00, 0xff, 0xff, 0xff, 0xff, 0x54, 0x00, 0x00, 0x00,
  0x3c, 0xfe, 0xff, 0xff, 0x08, 0x00, 0x00, 0x00, 0x0c, 0x00, 0x00, 0x00,
  0x01, 0x00, 0x00, 0x00, 0x81, 0x80, 0x80, 0x3b, 0x01, 0x00, 0x00, 0x00,
  0x80, 0xff, 0xff, 0xff, 0xff, 0xff, 0xff, 0xff, 0x00, 0x00, 0x00, 0x00,
  0xf2, 0xfe, 0xff, 0xff, 0x04, 0x00, 0x00, 0x00, 0x0c, 0x00, 0x00, 0x00,
  0x36, 0x01, 0x00, 0x00, 0x9f, 0xfc, 0xff, 0xff, 0xd7, 0x01, 0x00, 0x00,
  0xb6, 0xfe, 0xff, 0xff, 0x00, 0x00, 0x00, 0x02, 0x10, 0x00, 0x00, 0x00,
  0x04, 0x00, 0x00, 0x00, 0x10, 0x00, 0x00, 0x00, 0x20, 0x00, 0x00, 0x00,
  0x01, 0x00, 0x00, 0x00, 0x03, 0x00, 0x00, 0x00, 0x0c, 0x00, 0x00, 0x00,
  0x64, 0x65, 0x6e, 0x73, 0x65, 0x5f, 0x32, 0x2f, 0x62, 0x69, 0x61, 0x73,
  0x00, 0x00, 0x00, 0x00, 0xac, 0xfe, 0xff, 0xff, 0x08, 0x00, 0x00, 0x00,
  0x0c, 0x00, 0x00, 0x00, 0x01, 0x00, 0x00, 0x00, 0xb9, 0xa0, 0x8e, 0x39,
  0x01, 0x00, 0x00, 0x00, 0x00, 0x00, 0x00, 0x00, 0x00, 0x00, 0x00, 0x00,
  0x5e, 0xff, 0xff, 0xff, 0x04, 0x00, 0x00, 0x00, 0x40, 0x00, 0x00, 0x00,
  0x70, 0x01, 0x00, 0x00, 0x6a, 0x00, 0x00, 0x00, 0x4c, 0x04, 0x00, 0x00,
  0x1d, 0x00, 0x00, 0x00, 0x79, 0x01, 0x00, 0x00, 0x71, 0x00, 0x00, 0x00,
  0x02, 0x00, 0x00, 0x00, 0x50, 0x00, 0x00, 0x00, 0xad, 0xff, 0xff, 0xff,
  0xf7, 0x03, 0x00, 0x00, 0x0a, 0x03, 0x00, 0x00, 0x47, 0x03, 0x00, 0x00,
  0x0b, 0x04, 0x00, 0x00, 0x52, 0x02, 0x00, 0x00, 0x35, 0x04, 0x00, 0x00,
  0x2b, 0x01, 0x00, 0x00, 0x56, 0xff, 0xff, 0xff, 0x00, 0x00, 0x00, 0x02,
  0x10, 0x00, 0x00, 0x00, 0x03, 0x00, 0x00, 0x00, 0x10, 0x00, 0x00, 0x00,
  0x20, 0x00, 0x00, 0x00, 0x01, 0x00, 0x00, 0x00, 0x10, 0x00, 0x00, 0x00,
  0x0c, 0x00, 0x00, 0x00, 0x64, 0x65, 0x6e, 0x73, 0x65, 0x5f, 0x31, 0x2f,
  0x62, 0x69, 0x61, 0x73, 0x00, 0x00, 0x00, 0x00, 0x4c, 0xff, 0xff, 0xff,
  0x08, 0x00, 0x00, 0x00, 0x0c, 0x00, 0x00, 0x00, 0x01, 0x00, 0x00, 0x00,
  0x22, 0xfb, 0x70, 0x39, 0x01, 0x00, 0x00, 0x00, 0x00, 0x00, 0x00, 0x00,
  0x00, 0x00, 0x00, 0x00, 0x00, 0x00, 0x06, 0x00, 0x08, 0x00, 0x04, 0x00,
  0x06, 0x00, 0x00, 0x00, 0x04, 0x00, 0x00, 0x00, 0x40, 0x00, 0x00, 0x00,
  0x42, 0xf0, 0xff, 0xff, 0x61, 0xf9, 0xff, 0xff, 0x34, 0x06, 0x00, 0x00,
  0xbb, 0x21, 0x00, 0x00, 0x12, 0xf8, 0xff, 0xff, 0xe9, 0x31, 0x00, 0x00,
  0xcb, 0xe3, 0xff, 0xff, 0x3e, 0x33, 0x00, 0x00, 0x01, 0xec, 0xff, 0xff,
  0x3e, 0x36, 0x00, 0x00, 0x28, 0xf3, 0xff, 0xff, 0x33, 0xef, 0xff, 0xff,
  0x52, 0xfe, 0xff, 0xff, 0x0e, 0x00, 0x00, 0x00, 0xb9, 0xe0, 0xff, 0xff,
  0xd9, 0x0b, 0x00, 0x00, 0x00, 0x00, 0x0e, 0x00, 0x18, 0x00, 0x08, 0x00,
  0x07, 0x00, 0x0c, 0x00, 0x10, 0x00, 0x14, 0x00, 0x0e, 0x00, 0x00, 0x00,
  0x00, 0x00, 0x00, 0x02, 0x10, 0x00, 0x00, 0x00, 0x02, 0x00, 0x00, 0x00,
  0x10, 0x00, 0x00, 0x00, 0x28, 0x00, 0x00, 0x00, 0x01, 0x00, 0x00, 0x00,
  0x10, 0x00, 0x00, 0x00, 0x0a, 0x00, 0x00, 0x00, 0x64, 0x65, 0x6e, 0x73,
  0x65, 0x2f, 0x62, 0x69, 0x61, 0x73, 0x00, 0x00, 0x0c, 0x00, 0x0c, 0x00,
  0x00, 0x00, 0x00, 0x00, 0x04, 0x00, 0x08, 0x00, 0x0c, 0x00, 0x00, 0x00,
  0x08, 0x00, 0x00, 0x00, 0x0c, 0x00, 0x00, 0x00, 0x01, 0x00, 0x00, 0x00,
  0x94, 0x71, 0xaa, 0x37, 0x01, 0x00, 0x00, 0x00, 0x00, 0x00, 0x00, 0x00,
  0x00, 0x00, 0x00, 0x00, 0x14, 0x00, 0x18, 0x00, 0x04, 0x00, 0x00, 0x00,
  0x08, 0x00, 0x0c, 0x00, 0x10, 0x00, 0x00, 0x00, 0x00, 0x00, 0x14, 0x00,
  0x14, 0x00, 0x00, 0x00, 0x14, 0x00, 0x00, 0x00, 0x01, 0x00, 0x00, 0x00,
  0x18, 0x00, 0x00, 0x00, 0x40, 0x00, 0x00, 0x00, 0x30, 0x00, 0x00, 0x00,
  0x02, 0x00, 0x00, 0x00, 0x01, 0x00, 0x00, 0x00, 0x54, 0x00, 0x00, 0x00,
  0x19, 0x00, 0x00, 0x00, 0x73, 0x65, 0x72, 0x76, 0x69, 0x6e, 0x67, 0x5f,
  0x64, 0x65, 0x66, 0x61, 0x75, 0x6c, 0x74, 0x5f, 0x69, 0x6e, 0x70, 0x75,
  0x74, 0x5f, 0x31, 0x3a, 0x30, 0x00, 0x00, 0x00, 0x02, 0x00, 0x00, 0x00,
  0xff, 0xff, 0xff, 0xff, 0x54, 0x00, 0x00, 0x00, 0xfc, 0xff, 0xff, 0xff,
  0x04, 0x00, 0x04, 0x00, 0x04, 0x00, 0x00, 0x00
};
